// Fixture weights — regenerate with train_bnn_standalone.py after retraining.
// Layer 1: 64 neurons × 16 inputs = 1,024 bits
// Address layout: [neuron_j * 16 + input_i]
1
0
1
1
1
0
0
0
0
1
1
0
1
0
1
1
1
1
1
1
1
0
1
1
0
1
1
0
0
1
0
1
1
1
1
1
1
1
0
1
1
0
0
0
0
1
1
1
0
0
1
0
1
1
0
1
0
0
1
1
1
0
1
0
0
1
0
0
0
1
0
0
1
0
1
0
1
1
1
1
0
1
1
0
0
1
1
1
0
0
1
1
0
0
0
1
0
0
0
0
0
0
1
1
1
1
0
1
0
0
0
0
1
1
0
1
0
1
1
1
0
1
1
0
1
0
0
1
0
1
1
0
0
1
1
1
0
0
0
0
0
0
1
0
1
1
1
1
1
0
0
1
1
0
0
1
0
1
0
1
1
1
1
0
0
0
1
1
1
0
0
0
1
0
1
1
0
0
0
1
0
1
1
0
0
1
1
1
1
0
1
0
0
0
0
1
0
1
1
0
1
0
0
0
1
0
1
1
1
0
1
1
1
0
1
0
0
1
0
0
0
0
1
1
0
1
1
0
0
1
1
0
0
0
1
0
1
0
0
0
0
1
0
1
0
1
0
1
1
0
1
1
0
1
1
1
0
0
1
0
1
0
0
0
1
0
1
1
0
1
0
1
1
1
0
1
1
1
1
1
1
1
1
0
0
0
0
1
0
1
1
0
0
0
0
1
0
0
0
0
1
1
1
1
1
1
1
1
0
1
0
1
1
1
0
0
1
0
0
1
0
1
1
0
1
0
1
0
1
0
1
1
0
1
1
0
0
1
1
0
0
0
1
1
1
1
0
0
1
1
0
1
1
0
1
0
0
1
1
0
0
0
0
0
0
1
1
1
0
0
1
0
1
0
0
1
1
0
0
1
1
1
1
0
1
0
1
1
1
0
0
0
1
0
1
1
1
0
1
1
0
1
0
1
1
0
1
1
1
0
1
0
0
1
1
1
0
0
1
1
0
1
0
1
1
0
0
0
0
1
1
0
0
1
1
1
0
1
1
1
0
1
1
1
0
1
1
0
1
0
1
0
0
0
0
1
1
0
1
0
1
0
1
1
1
0
1
0
1
1
0
0
0
0
1
1
1
1
0
1
1
1
1
1
1
0
1
1
0
1
1
1
1
0
0
1
0
1
0
1
0
0
0
1
1
0
1
1
0
1
0
1
0
0
0
0
0
0
1
0
0
0
0
0
1
1
1
0
1
1
1
0
0
1
0
1
0
1
1
1
0
0
0
1
1
1
1
0
0
1
1
1
1
0
0
1
0
1
1
0
1
0
0
1
0
1
0
0
0
0
0
0
0
0
1
1
1
0
0
1
1
1
0
0
0
0
1
0
1
0
0
1
1
0
0
1
0
0
0
1
0
0
1
1
1
1
1
0
1
0
0
0
1
0
0
0
1
0
1
1
0
1
1
1
1
1
0
1
1
1
0
0
0
1
0
0
0
0
1
1
1
0
0
1
1
1
0
0
0
0
1
1
0
0
0
1
1
0
1
1
0
1
0
0
1
0
1
1
0
1
1
1
1
1
1
0
1
1
0
0
1
0
0
1
0
1
1
0
0
0
1
1
1
0
0
1
0
0
1
0
1
1
1
1
1
1
1
0
0
0
1
0
0
1
0
0
1
1
1
0
0
1
0
0
1
1
1
0
0
1
0
0
0
1
0
1
0
1
1
0
1
0
1
1
0
0
0
1
1
0
1
1
1
1
1
1
0
1
0
0
1
0
1
0
1
1
0
1
1
1
1
0
1
0
1
0
1
1
1
0
0
0
1
0
1
0
1
1
0
1
0
1
1
0
0
1
1
0
0
0
1
0
1
1
1
0
0
0
0
0
1
1
0
1
1
1
0
0
0
0
1
1
1
1
1
1
0
1
1
0
0
0
1
0
0
0
1
0
1
1
1
0
1
0
0
0
0
1
1
1
1
1
0
1
0
1
0
1
0
1
0
1
0
1
0
1
0
0
1
1
1
1
1
0
0
1
0
1
0
1
1
1
1
1
0
0
0
1
0
0
1
0
1
0
1
1
1
1
1
1
0
1
0
0
0
1
1
1
1
0
1
1
0
0
0
0
0
0
1
0
0
1
1
0
1
0
1
0
0
1
0
0
1
0
1
0
0
0
0
0
0
1
1
1
0
1
1
0
0
0
1
1
1
0
1
1
1
0
0
0
0
0
0
1
1
0
0
1
0
0
1
0
0
0
0
1
1
1
1
0
0
1
1
0
0
1
0
1
1
0
0
1
1
1
1
1
0
0
0
1
1
1
1
0
0
0
1
0
0
0
0
1
0
0
0
1
0
1
0
0
1
0
1
1
// Layer 2: 3 neurons × 64 inputs = 192 bits
// Address layout: [1024 + neuron_j * 64 + input_i]
0
0
0
1
1
0
1
0
0
0
1
1
1
1
0
1
1
0
0
0
0
0
0
1
0
1
0
0
0
1
0
0
1
0
0
1
1
1
1
0
1
0
0
0
0
1
0
0
0
0
0
1
0
0
1
0
0
1
0
1
0
0
0
1
0
0
0
1
1
1
1
0
0
0
1
1
1
1
1
1
1
0
0
0
1
1
0
0
1
1
0
1
0
1
1
0
1
0
0
0
1
1
1
0
1
0
1
0
1
1
0
0
1
0
0
1
0
0
1
0
0
1
1
1
0
1
0
0
0
1
1
1
1
0
0
0
0
1
1
0
0
1
1
0
1
0
0
1
1
1
1
0
1
0
0
0
0
1
1
0
0
1
1
0
1
1
1
0
1
1
1
0
1
0
1
1
1
0
1
0
0
1
0
1
1
0
0
0
0
1
0
0
